const unsigned char dht_anomaly_model_tflite[] = {
  0x1c, 0x00, 0x00, 0x00, 0x54, 0x46, 0x4c, 0x33, 0x14, 0x00, 0x20, 0x00,
  0x1c, 0x00, 0x18, 0x00, 0x14, 0x00, 0x10, 0x00, 0x0c, 0x00, 0x00, 0x00,
  0x08, 0x00, 0x04, 0x00, 0x14, 0x00, 0x00, 0x00, 0x1c, 0x00, 0x00, 0x00,
  0x98, 0x00, 0x00, 0x00, 0xf0, 0x00, 0x00, 0x00, 0x14, 0x0c, 0x00, 0x00,
  0x24, 0x0c, 0x00, 0x00, 0x08, 0x11, 0x00, 0x00, 0x03, 0x00, 0x00, 0x00,
  0x01, 0x00, 0x00, 0x00, 0x10, 0x00, 0x00, 0x00, 0x00, 0x00, 0x0a, 0x00,
  0x10, 0x00, 0x0c, 0x00, 0x08, 0x00, 0x04, 0x00, 0x0a, 0x00, 0x00, 0x00,
  0x0c, 0x00, 0x00, 0x00, 0x1c, 0x00, 0x00, 0x00, 0x3c, 0x00, 0x00, 0x00,
  0x0f, 0x00, 0x00, 0x00, 0x73, 0x65, 0x72, 0x76, 0x69, 0x6e, 0x67, 0x5f,
  0x64, 0x65, 0x66, 0x61, 0x75, 0x6c, 0x74, 0x00, 0x01, 0x00, 0x00, 0x00,
  0x04, 0x00, 0x00, 0x00, 0x90, 0xff, 0xff, 0xff, 0x09, 0x00, 0x00, 0x00,
  0x04, 0x00, 0x00, 0x00, 0x08, 0x00, 0x00, 0x00, 0x6f, 0x75, 0x74, 0x70,
  0x75, 0x74, 0x5f, 0x30, 0x00, 0x00, 0x00, 0x00, 0x01, 0x00, 0x00, 0x00,
  0x04, 0x00, 0x00, 0x00, 0xba, 0xf4, 0xff, 0xff, 0x04, 0x00, 0x00, 0x00,
  0x0c, 0x00, 0x00, 0x00, 0x6b, 0x65, 0x72, 0x61, 0x73, 0x5f, 0x74, 0x65,
  0x6e, 0x73, 0x6f, 0x72, 0x00, 0x00, 0x00, 0x00, 0x02, 0x00, 0x00, 0x00,
  0x34, 0x00, 0x00, 0x00, 0x04, 0x00, 0x00, 0x00, 0xdc, 0xff, 0xff, 0xff,
  0x0c, 0x00, 0x00, 0x00, 0x04, 0x00, 0x00, 0x00, 0x13, 0x00, 0x00, 0x00,
  0x43, 0x4f, 0x4e, 0x56, 0x45, 0x52, 0x53, 0x49, 0x4f, 0x4e, 0x5f, 0x4d,
  0x45, 0x54, 0x41, 0x44, 0x41, 0x54, 0x41, 0x00, 0x08, 0x00, 0x0c, 0x00,
  0x08, 0x00, 0x04, 0x00, 0x08, 0x00, 0x00, 0x00, 0x0b, 0x00, 0x00, 0x00,
  0x04, 0x00, 0x00, 0x00, 0x13, 0x00, 0x00, 0x00, 0x6d, 0x69, 0x6e, 0x5f,
  0x72, 0x75, 0x6e, 0x74, 0x69, 0x6d, 0x65, 0x5f, 0x76, 0x65, 0x72, 0x73,
  0x69, 0x6f, 0x6e, 0x00, 0x0d, 0x00, 0x00, 0x00, 0x20, 0x0b, 0x00, 0x00,
  0x18, 0x0b, 0x00, 0x00, 0xc8, 0x0a, 0x00, 0x00, 0xac, 0x0a, 0x00, 0x00,
  0x5c, 0x0a, 0x00, 0x00, 0x4c, 0x02, 0x00, 0x00, 0x3c, 0x01, 0x00, 0x00,
  0xac, 0x00, 0x00, 0x00, 0xa4, 0x00, 0x00, 0x00, 0x9c, 0x00, 0x00, 0x00,
  0x94, 0x00, 0x00, 0x00, 0x74, 0x00, 0x00, 0x00, 0x04, 0x00, 0x00, 0x00,
  0x6a, 0xf5, 0xff, 0xff, 0x04, 0x00, 0x00, 0x00, 0x60, 0x00, 0x00, 0x00,
  0x0c, 0x00, 0x00, 0x00, 0x08, 0x00, 0x0e, 0x00, 0x08, 0x00, 0x04, 0x00,
  0x08, 0x00, 0x00, 0x00, 0x10, 0x00, 0x00, 0x00, 0x28, 0x00, 0x00, 0x00,
  0x00, 0x00, 0x06, 0x00, 0x08, 0x00, 0x04, 0x00, 0x06, 0x00, 0x00, 0x00,
  0x04, 0x00, 0x00, 0x00, 0x01, 0x00, 0x00, 0x00, 0xea, 0x03, 0x00, 0x00,
  0x0c, 0x00, 0x18, 0x00, 0x14, 0x00, 0x10, 0x00, 0x0c, 0x00, 0x04, 0x00,
  0x0c, 0x00, 0x00, 0x00, 0xf4, 0x2e, 0x45, 0x88, 0x8a, 0xa5, 0xa1, 0x24,
  0x02, 0x00, 0x00, 0x00, 0x02, 0x00, 0x00, 0x00, 0x04, 0x00, 0x00, 0x00,
  0x06, 0x00, 0x00, 0x00, 0x32, 0x2e, 0x32, 0x30, 0x2e, 0x30, 0x00, 0x00,
  0xd6, 0xf5, 0xff, 0xff, 0x04, 0x00, 0x00, 0x00, 0x10, 0x00, 0x00, 0x00,
  0x31, 0x2e, 0x35, 0x2e, 0x30, 0x00, 0x00, 0x00, 0x00, 0x00, 0x00, 0x00,
  0x00, 0x00, 0x00, 0x00, 0xd4, 0xf0, 0xff, 0xff, 0xd8, 0xf0, 0xff, 0xff,
  0xdc, 0xf0, 0xff, 0xff, 0xfe, 0xf5, 0xff, 0xff, 0x04, 0x00, 0x00, 0x00,
  0x80, 0x00, 0x00, 0x00, 0x00, 0x36, 0x53, 0x3e, 0x00, 0x00, 0x00, 0x00,
  0x00, 0x00, 0x00, 0x00, 0x00, 0x00, 0x00, 0x00, 0xc3, 0x3f, 0x2d, 0xbe,
  0x8d, 0x9e, 0x9f, 0x3d, 0x00, 0x00, 0x00, 0x00, 0x70, 0x51, 0x8c, 0xbe,
  0x00, 0x00, 0x00, 0x00, 0xfc, 0x43, 0xdc, 0xbb, 0x00, 0x00, 0x00, 0x00,
  0x5e, 0x70, 0x00, 0xbd, 0x00, 0x00, 0x00, 0x00, 0x72, 0xbf, 0x48, 0x3d,
  0x00, 0x96, 0xad, 0x3d, 0x00, 0x00, 0x00, 0x00, 0xd9, 0x0d, 0x8b, 0xbd,
  0x00, 0x00, 0x00, 0x00, 0xb2, 0x0b, 0x63, 0xbd, 0x00, 0x00, 0x00, 0x00,
  0x00, 0x00, 0x00, 0x00, 0x00, 0x00, 0x00, 0x00, 0xa8, 0x50, 0xdf, 0x3d,
  0x00, 0x00, 0x00, 0x00, 0xa9, 0xdf, 0x39, 0xbe, 0x1f, 0x72, 0xd6, 0x3d,
  0x00, 0x00, 0x00, 0x00, 0x4c, 0xfe, 0x2a, 0x3c, 0xbe, 0xa7, 0x0f, 0x3e,
  0x05, 0xf4, 0xdf, 0xbc, 0xc8, 0xc5, 0xbb, 0xbe, 0x0e, 0xe5, 0x12, 0x40,
  0x8a, 0xf6, 0xff, 0xff, 0x04, 0x00, 0x00, 0x00, 0x00, 0x01, 0x00, 0x00,
  0xf4, 0x30, 0x89, 0x3b, 0x5d, 0x52, 0x10, 0x3e, 0xe0, 0x9e, 0x5d, 0x3c,
  0x70, 0x2f, 0x77, 0xbe, 0x40, 0x45, 0xca, 0xbb, 0xb5, 0x35, 0x50, 0xbe,
  0xb5, 0x97, 0x82, 0x3e, 0x2c, 0xa4, 0x8d, 0xbe, 0xb1, 0x91, 0x62, 0x3e,
  0x2d, 0xde, 0x2d, 0x3c, 0x87, 0x10, 0x71, 0xbd, 0x63, 0xdd, 0x85, 0x3e,
  0x34, 0x05, 0x86, 0x3d, 0x10, 0x5f, 0xb6, 0xbe, 0xfb, 0xb6, 0xc4, 0x3e,
  0xc7, 0xf6, 0x1e, 0x3d, 0xd8, 0xc2, 0x78, 0x3d, 0x22, 0xbe, 0x44, 0xbe,
  0x46, 0xbf, 0xbb, 0xbe, 0x15, 0xfc, 0x94, 0x3e, 0xf8, 0x7a, 0x6e, 0xbe,
  0x40, 0xf7, 0x97, 0xbd, 0x7a, 0x3d, 0xc0, 0x3e, 0x74, 0xe0, 0xb5, 0xbe,
  0x9e, 0x0f, 0xa1, 0xbe, 0xc5, 0xfd, 0xd6, 0xbe, 0xc1, 0x94, 0xb0, 0x3e,
  0x0c, 0x01, 0xff, 0xbd, 0x63, 0xb3, 0xc8, 0x3e, 0xa5, 0x12, 0xb8, 0xbd,
  0x90, 0x9b, 0x74, 0xbe, 0xfc, 0x72, 0x7a, 0xbe, 0xb1, 0x8c, 0x31, 0x3d,
  0x0a, 0xdb, 0x8e, 0x3e, 0x38, 0x44, 0xcc, 0xbd, 0xb0, 0xbc, 0xd2, 0xbc,
  0x46, 0x0a, 0x5e, 0x3e, 0xc1, 0xf5, 0x2d, 0xbe, 0x7c, 0x7d, 0xd7, 0x3d,
  0xa0, 0x5b, 0xe5, 0xbd, 0xaf, 0x07, 0x9f, 0xbe, 0xd0, 0x37, 0xcb, 0xbc,
  0xa8, 0x75, 0x0d, 0xbd, 0x28, 0x70, 0x72, 0xbd, 0xb9, 0x6a, 0xa5, 0x3b,
  0x93, 0x13, 0xf8, 0x3b, 0x10, 0x90, 0x1b, 0xbd, 0x15, 0x9b, 0xc4, 0xbe,
  0x24, 0x52, 0xfa, 0x3d, 0xf5, 0xa1, 0x4a, 0x3e, 0xea, 0xdb, 0xbe, 0xbe,
  0xfd, 0x25, 0x8d, 0x3e, 0x04, 0xac, 0x8b, 0xbe, 0xa9, 0xf6, 0x8b, 0xbe,
  0xa1, 0x75, 0xbf, 0xbd, 0xce, 0x62, 0x06, 0x3d, 0xd2, 0x7e, 0xcd, 0x3e,
  0x1d, 0x37, 0x70, 0xbd, 0xf5, 0xf1, 0x22, 0xbe, 0x03, 0x60, 0x01, 0x3e,
  0xf4, 0x95, 0x97, 0x3e, 0x10, 0x7f, 0x83, 0x3c, 0x61, 0x51, 0x95, 0x3e,
  0x58, 0x8a, 0xe9, 0xbd, 0x96, 0xf7, 0xff, 0xff, 0x04, 0x00, 0x00, 0x00,
  0x00, 0x08, 0x00, 0x00, 0xd4, 0xda, 0xfd, 0x3d, 0xae, 0x2b, 0x4c, 0x3e,
  0xde, 0x04, 0x05, 0x3e, 0xe8, 0x02, 0x7c, 0x3d, 0x40, 0x36, 0x2e, 0xbc,
  0x10, 0x3a, 0xf1, 0xbd, 0xf2, 0xd1, 0x64, 0x3e, 0x9e, 0x86, 0x41, 0xbe,
  0x5c, 0x2b, 0xb5, 0x3d, 0x00, 0x03, 0x4f, 0xbb, 0x02, 0xe1, 0x1e, 0x3e,
  0x5c, 0xc4, 0x99, 0xbe, 0xd7, 0x03, 0xa5, 0x3e, 0x63, 0xdf, 0x12, 0xbe,
  0xa7, 0xa4, 0x7b, 0xbe, 0xdd, 0x5d, 0x9d, 0x3e, 0x80, 0xf2, 0x03, 0xbb,
  0xee, 0x12, 0x3f, 0xbe, 0x34, 0xb9, 0xee, 0x3d, 0x8c, 0xd2, 0x8e, 0xbe,
  0x82, 0x0c, 0x28, 0xbe, 0xee, 0x4f, 0x88, 0xbe, 0x00, 0xc2, 0x96, 0xba,
  0x2c, 0xac, 0x9b, 0xbe, 0x39, 0x0a, 0x2a, 0xbe, 0x58, 0xff, 0x59, 0x3d,
  0x24, 0x29, 0x90, 0x3d, 0xd1, 0xc1, 0x86, 0xbe, 0xd8, 0xa8, 0xa9, 0xbd,
  0x80, 0x26, 0x85, 0xbe, 0x70, 0x0f, 0xc6, 0xbd, 0x30, 0xeb, 0x88, 0xbd,
  0x7e, 0xcd, 0xb4, 0x3d, 0xbc, 0x96, 0xa5, 0xbd, 0x12, 0x24, 0x01, 0x3e,
  0xc0, 0xfb, 0x35, 0xbe, 0xd5, 0x05, 0x52, 0x3e, 0x28, 0x1a, 0x54, 0xbe,
  0x6e, 0x2f, 0x7c, 0x3e, 0xec, 0x00, 0x00, 0x3d, 0x9e, 0x39, 0x6e, 0x3e,
  0x03, 0x8d, 0x7d, 0x3c, 0xb6, 0x21, 0x66, 0x3e, 0xfd, 0xff, 0x99, 0xbe,
  0xb2, 0xe4, 0x3a, 0x3e, 0x97, 0x19, 0x5a, 0x3d, 0xe1, 0x20, 0x20, 0xbe,
  0x35, 0xa0, 0x1b, 0xbe, 0x57, 0xdd, 0x4c, 0x3e, 0xe5, 0x77, 0x60, 0xbe,
  0x70, 0x46, 0x2f, 0x3e, 0x16, 0xd3, 0x42, 0x3e, 0xa2, 0x15, 0x3c, 0x3e,
  0x66, 0x20, 0x33, 0x3e, 0xfe, 0x89, 0xfa, 0x3d, 0x7b, 0x1d, 0x88, 0x3e,
  0xe0, 0xfd, 0xb4, 0x3d, 0x9c, 0x97, 0xa0, 0x3d, 0x3d, 0x74, 0x94, 0x3e,
  0x55, 0x60, 0xb8, 0xbe, 0x73, 0x47, 0x04, 0xbe, 0x11, 0xe9, 0xa3, 0x3c,
  0x82, 0xc2, 0xa6, 0x3d, 0xb6, 0x05, 0x7a, 0xbe, 0x26, 0x01, 0xa6, 0xbe,
  0x52, 0x68, 0x5a, 0x3e, 0x80, 0x4f, 0x8c, 0xbe, 0x70, 0x9b, 0x47, 0xbd,
  0xe1, 0x9f, 0x43, 0x3e, 0x1c, 0x18, 0x4f, 0xbe, 0x00, 0x4a, 0x3c, 0x3a,
  0xe7, 0xe5, 0xaa, 0xbd, 0x60, 0x8c, 0x21, 0xbd, 0x05, 0x8f, 0xbd, 0xbc,
  0x06, 0xd2, 0x4c, 0x3e, 0x1f, 0x0b, 0x1d, 0x3e, 0x76, 0x2f, 0x89, 0xbe,
  0xf5, 0x2b, 0x7e, 0xbe, 0x79, 0xe3, 0x00, 0xbe, 0xdc, 0x4e, 0x07, 0x3e,
  0x27, 0x1c, 0x08, 0x3e, 0x12, 0x26, 0xe0, 0xbd, 0xb8, 0xd4, 0x8f, 0xbd,
  0xdb, 0x4f, 0xa0, 0x3e, 0xfe, 0x99, 0x57, 0xbe, 0x44, 0x78, 0x89, 0xbd,
  0x6b, 0x30, 0xf5, 0xbd, 0xf0, 0xf0, 0xba, 0xbd, 0xc1, 0x68, 0x2b, 0x3e,
  0xc6, 0x57, 0x86, 0x3e, 0x4b, 0x2e, 0xa4, 0xbe, 0x41, 0x2b, 0x23, 0x3e,
  0x1f, 0x10, 0x43, 0xbe, 0x52, 0x0f, 0xe5, 0x3b, 0x39, 0xa9, 0xd2, 0xbd,
  0x1a, 0x0b, 0x3c, 0xbe, 0x4b, 0x16, 0x3b, 0x3e, 0x60, 0xbc, 0x91, 0x3d,
  0xc8, 0x41, 0xa0, 0xbe, 0xf5, 0x9a, 0xaa, 0xbe, 0x5e, 0x9d, 0x91, 0x3e,
  0x05, 0x9c, 0x5b, 0xbd, 0xf6, 0x2c, 0x57, 0x3e, 0x42, 0xa5, 0xc1, 0xbc,
  0xd1, 0x8c, 0x50, 0xbe, 0x42, 0x65, 0x80, 0x3d, 0x52, 0x86, 0x88, 0xbe,
  0xc2, 0x8a, 0x94, 0xbe, 0x2e, 0x56, 0x8b, 0xbe, 0x9f, 0x68, 0x38, 0x3e,
  0x05, 0x4c, 0xae, 0xbe, 0x13, 0xbf, 0xb2, 0x3e, 0x64, 0x11, 0xc6, 0x3d,
  0x28, 0x0d, 0x52, 0x3d, 0x54, 0x53, 0x86, 0xbd, 0xa2, 0x49, 0x1c, 0x3e,
  0xd3, 0x45, 0x85, 0xbe, 0xdc, 0x46, 0x94, 0xbe, 0x92, 0xba, 0x92, 0x3e,
  0x9d, 0x3c, 0x82, 0x3e, 0xd7, 0x78, 0xc2, 0xbc, 0xbb, 0x90, 0x86, 0x3e,
  0xfd, 0x1c, 0x9c, 0x3e, 0xb6, 0x52, 0x95, 0xbe, 0xf2, 0x3a, 0xe1, 0x3d,
  0x6a, 0x4f, 0x89, 0xbd, 0x66, 0x10, 0x93, 0xbe, 0xa3, 0x1e, 0xaf, 0x3e,
  0xcf, 0x72, 0xb6, 0xbe, 0xd0, 0x28, 0xcf, 0x3c, 0x40, 0x76, 0x3d, 0xbc,
  0xba, 0x43, 0x38, 0x3e, 0x5d, 0xbe, 0xca, 0xbe, 0x01, 0xa7, 0x4b, 0x3e,
  0xf5, 0x11, 0x2e, 0xbe, 0xf1, 0x54, 0x0c, 0xbe, 0x30, 0xf3, 0xc7, 0x3d,
  0xe6, 0x54, 0xbc, 0xbe, 0xd0, 0x1f, 0xe9, 0x3c, 0x0b, 0xef, 0xb8, 0x3d,
  0x6e, 0x63, 0x99, 0xbe, 0x10, 0x9e, 0x99, 0xbe, 0x28, 0x4b, 0xea, 0xbc,
  0xdd, 0x21, 0x09, 0xbe, 0x9a, 0x2e, 0xfb, 0xbc, 0xa0, 0x73, 0xe9, 0x3c,
  0x19, 0xa7, 0x91, 0x3e, 0x06, 0xcc, 0x6a, 0x3e, 0xc6, 0x56, 0x73, 0x3e,
  0x3a, 0xfa, 0xad, 0xbe, 0x66, 0xfc, 0x7c, 0x3e, 0x68, 0xe8, 0x67, 0x3d,
  0xeb, 0x14, 0x92, 0x3e, 0x38, 0xea, 0x87, 0xbe, 0x3a, 0x3a, 0xe3, 0xbd,
  0x4f, 0xc2, 0x5f, 0xbe, 0x6f, 0xc6, 0x38, 0x3e, 0xaf, 0xed, 0x32, 0xbe,
  0xc5, 0x45, 0xb3, 0x3b, 0x4f, 0xf0, 0x5b, 0x3e, 0xc3, 0x35, 0x94, 0x3e,
  0x8d, 0xf8, 0x2c, 0xbe, 0x9d, 0x59, 0x61, 0xbe, 0x9f, 0x4a, 0x8f, 0xbe,
  0xaa, 0x22, 0xa2, 0x3c, 0x0b, 0xb0, 0x60, 0x3e, 0xd2, 0xdd, 0x37, 0xbe,
  0x18, 0xcc, 0xd7, 0xbd, 0xa0, 0x1e, 0x07, 0x3c, 0x40, 0x3c, 0x38, 0xbe,
  0xb2, 0x63, 0x57, 0x3e, 0xc5, 0x46, 0x70, 0x3e, 0x8c, 0xce, 0xb2, 0xbe,
  0x76, 0x9d, 0x94, 0xbd, 0x25, 0x39, 0xcd, 0x3d, 0xe8, 0x18, 0x1f, 0xbe,
  0xc9, 0x13, 0xa5, 0x3e, 0xc4, 0x99, 0x96, 0x3d, 0x3e, 0xda, 0x7f, 0xbd,
  0x34, 0x71, 0x02, 0x3e, 0xe1, 0xb1, 0x94, 0x3e, 0xc0, 0x5c, 0x65, 0xbc,
  0xfc, 0xfc, 0xa9, 0xbe, 0xe8, 0xea, 0x77, 0x3d, 0xfb, 0x72, 0xa9, 0x3e,
  0xfa, 0xa9, 0x83, 0x3e, 0x76, 0xd8, 0x5c, 0x3e, 0xcb, 0x42, 0x2f, 0x3e,
  0xcc, 0xb3, 0x1f, 0xbc, 0xa8, 0xb8, 0x18, 0xbe, 0x06, 0xe1, 0xb9, 0xbd,
  0x0d, 0x25, 0x99, 0x3d, 0xdf, 0x43, 0x39, 0xbe, 0x2c, 0xa0, 0xc8, 0x3d,
  0x82, 0x0b, 0xd8, 0xbd, 0x30, 0x73, 0xcb, 0xbc, 0xe7, 0x40, 0x1a, 0x3d,
  0x2d, 0xfa, 0x9a, 0x3e, 0x90, 0xad, 0xb6, 0x3d, 0xbd, 0xf4, 0x65, 0x3e,
  0x30, 0x0b, 0x01, 0xbe, 0xd8, 0x3d, 0xef, 0xbd, 0x86, 0xb3, 0x5a, 0x3e,
  0x68, 0x28, 0xb3, 0xbe, 0xb5, 0x2a, 0x43, 0xbe, 0x7f, 0x35, 0x2a, 0xbd,
  0x59, 0x0f, 0x58, 0xbe, 0xc0, 0x9e, 0x5f, 0x3d, 0xdc, 0x26, 0x9b, 0xbd,
  0x10, 0xe1, 0x1d, 0xbd, 0xb5, 0xd6, 0x26, 0x3d, 0x3b, 0xc9, 0x9d, 0x3e,
  0x68, 0x07, 0x76, 0xbd, 0x00, 0x8b, 0xfd, 0xba, 0x2e, 0xc3, 0x5a, 0xbe,
  0xec, 0x50, 0x8b, 0xbd, 0xba, 0x9a, 0xe3, 0x3d, 0xbd, 0x90, 0xf8, 0x3c,
  0xb0, 0xda, 0xa1, 0x3c, 0xd5, 0x92, 0x7e, 0x3e, 0xde, 0xa9, 0x90, 0x3e,
  0x04, 0xa2, 0x99, 0xbe, 0x33, 0xca, 0xdd, 0x3d, 0x32, 0x12, 0xc8, 0xbd,
  0x68, 0x01, 0x39, 0xbd, 0x42, 0x7c, 0x27, 0x3e, 0x07, 0xc1, 0x0d, 0xbe,
  0xe7, 0x75, 0x86, 0x3e, 0xff, 0x2d, 0x8f, 0x3e, 0xbe, 0x7b, 0x14, 0x3e,
  0x05, 0x67, 0xaa, 0x3e, 0xc0, 0xb3, 0x3b, 0xbe, 0x57, 0xff, 0x16, 0xbe,
  0x40, 0x95, 0x54, 0x3d, 0x84, 0xb6, 0x8b, 0xbd, 0xae, 0x16, 0xef, 0xbd,
  0x75, 0x84, 0x2f, 0xbe, 0x1c, 0xff, 0xac, 0xbd, 0xac, 0x2f, 0x09, 0xbe,
  0x34, 0x2b, 0x5a, 0xbe, 0x2a, 0xc0, 0xaf, 0xbe, 0x5a, 0xa3, 0x8f, 0xbe,
  0x70, 0xb5, 0x6a, 0x3d, 0xac, 0xba, 0xad, 0xbd, 0xf4, 0x79, 0xcb, 0xbd,
  0x55, 0xee, 0xaa, 0x3e, 0x19, 0xa7, 0xa4, 0x3e, 0x96, 0xbd, 0x9f, 0xbe,
  0xd4, 0x3a, 0x92, 0xbe, 0x0c, 0x65, 0x9e, 0xbe, 0xb2, 0xf3, 0x28, 0x3e,
  0x53, 0xe0, 0xa1, 0x3e, 0x0b, 0x47, 0xac, 0x3e, 0x3c, 0xb0, 0xc4, 0x3d,
  0x80, 0xdb, 0xa9, 0xbc, 0x9a, 0xc7, 0x13, 0x3e, 0xde, 0xcc, 0x8a, 0xbe,
  0x10, 0xef, 0x13, 0x3d, 0x60, 0x99, 0x83, 0x3c, 0x9c, 0xe8, 0xc3, 0x3d,
  0xb5, 0x9f, 0x85, 0xbe, 0x75, 0xaf, 0x4e, 0xbe, 0xc2, 0xb2, 0xe9, 0xbd,
  0xc1, 0xfd, 0x41, 0xbd, 0xc5, 0x08, 0x68, 0xbe, 0xd0, 0x4f, 0x51, 0xbc,
  0xb3, 0x4b, 0x75, 0xbe, 0x25, 0x09, 0x11, 0x3c, 0x82, 0xa8, 0x36, 0xbe,
  0x66, 0x38, 0x41, 0xbe, 0xa4, 0x94, 0x53, 0x3e, 0xe0, 0xb6, 0x64, 0xbc,
  0xbe, 0x43, 0x48, 0xbc, 0x60, 0x1c, 0x64, 0xbc, 0x1c, 0x94, 0x76, 0x3d,
  0xe7, 0x2e, 0x22, 0xbe, 0x9e, 0x9f, 0x6e, 0xbe, 0xb7, 0xac, 0x38, 0xbe,
  0x71, 0xcd, 0x59, 0x3e, 0x5b, 0xc4, 0x2c, 0xbe, 0x2f, 0x4e, 0xc7, 0xbd,
  0x4b, 0xc9, 0x95, 0xbe, 0xf5, 0x32, 0xb0, 0x3e, 0x66, 0x84, 0x15, 0xbe,
  0xcc, 0xdf, 0x43, 0x3e, 0xc3, 0x4e, 0x93, 0xbe, 0x54, 0x23, 0x2d, 0x3d,
  0xcd, 0x6d, 0x9c, 0xbe, 0x5c, 0x76, 0x80, 0xbe, 0x09, 0xb9, 0x83, 0x3e,
  0xec, 0x2d, 0xe2, 0xbd, 0x00, 0x14, 0xdc, 0xbc, 0xef, 0x31, 0x0b, 0x3e,
  0x3e, 0x2b, 0x83, 0x3e, 0xb7, 0xdf, 0xb0, 0x3e, 0x29, 0x6a, 0x08, 0xbe,
  0xc0, 0xcd, 0x82, 0xbd, 0xee, 0xb9, 0xc0, 0xbd, 0x60, 0x76, 0x3e, 0xbd,
  0x29, 0xd2, 0x96, 0xbd, 0x80, 0xe9, 0x3d, 0xbe, 0xc1, 0xb4, 0x0b, 0x3e,
  0xcc, 0xb9, 0x23, 0x3e, 0x6c, 0x3d, 0x8b, 0x3d, 0x3f, 0x0b, 0xe3, 0x3d,
  0x70, 0x2e, 0xd8, 0x3c, 0x4c, 0x21, 0x9e, 0xbd, 0xa8, 0xd6, 0x77, 0xbe,
  0xa7, 0x31, 0x67, 0xbe, 0x62, 0x96, 0x0c, 0x3e, 0x4f, 0xd1, 0xf3, 0x3d,
  0x87, 0x30, 0x52, 0xbe, 0x4f, 0xdb, 0x53, 0x3e, 0x7b, 0x20, 0x77, 0x3e,
  0x05, 0xc5, 0x95, 0x3e, 0x1c, 0x2e, 0x0e, 0x3e, 0x44, 0xcc, 0x04, 0xbe,
  0xba, 0xc8, 0xc7, 0xbc, 0xd2, 0x1c, 0xb6, 0xbe, 0x4a, 0x4e, 0x63, 0x3e,
  0x40, 0x27, 0xf9, 0x3b, 0x78, 0x97, 0xdd, 0x3d, 0xb6, 0xd6, 0x69, 0x3e,
  0x28, 0xe9, 0x92, 0xbd, 0x02, 0x22, 0x71, 0x3e, 0xf9, 0x4b, 0xb0, 0xbe,
  0x56, 0xb2, 0x9b, 0xbe, 0xd8, 0x6e, 0x5f, 0xbd, 0x3a, 0xdc, 0x83, 0xbe,
  0xe7, 0x11, 0x30, 0xbe, 0xe0, 0xf5, 0x83, 0x3c, 0x78, 0xb3, 0x03, 0x3e,
  0x50, 0xf0, 0xc9, 0xbd, 0xe4, 0x11, 0xaf, 0xbd, 0x93, 0x36, 0x75, 0xbe,
  0xaa, 0xc8, 0x74, 0x3e, 0xfe, 0x9e, 0x66, 0x3e, 0x79, 0x0c, 0xa4, 0xbe,
  0x82, 0x48, 0x44, 0xbe, 0x78, 0x29, 0x81, 0x3d, 0xf4, 0x9e, 0xaa, 0x3d,
  0xba, 0x53, 0x17, 0xbe, 0x61, 0x4d, 0x83, 0x3e, 0xe0, 0x44, 0x9a, 0xbe,
  0xb0, 0x8c, 0xf5, 0xbd, 0x8c, 0xa0, 0xfb, 0x3d, 0x20, 0xa0, 0x36, 0xbd,
  0xd7, 0x4a, 0xb4, 0x3e, 0xe3, 0x77, 0xa6, 0x3e, 0xfe, 0x6a, 0x5e, 0x3e,
  0xc6, 0xab, 0x86, 0xbe, 0x00, 0x8f, 0xb6, 0x3c, 0xdc, 0x6b, 0x9a, 0xbe,
  0x6f, 0xd5, 0x5b, 0xbe, 0x4a, 0xfe, 0x41, 0x3e, 0xc2, 0x80, 0x87, 0xbe,
  0xd2, 0x2e, 0xa6, 0x3e, 0x54, 0x6f, 0xb8, 0xbd, 0x18, 0x8e, 0xa1, 0xbd,
  0x13, 0xe4, 0x85, 0x3e, 0xee, 0xe2, 0x70, 0x3e, 0xe1, 0x33, 0xd8, 0x3c,
  0x43, 0x10, 0x83, 0x3e, 0xdf, 0x44, 0x52, 0x3e, 0x88, 0xee, 0xb1, 0xbd,
  0xe4, 0x1d, 0x8e, 0xbb, 0xcd, 0xcf, 0x79, 0xbe, 0xac, 0xd6, 0x82, 0xbd,
  0xb4, 0xd4, 0x1e, 0xbd, 0x12, 0xbb, 0x22, 0x3e, 0xe9, 0xc9, 0xa4, 0x3d,
  0xac, 0xb3, 0x89, 0xbe, 0xa1, 0x26, 0x9f, 0x3e, 0xc5, 0xf6, 0x9d, 0x3e,
  0x81, 0x6b, 0x7a, 0xbd, 0x80, 0x0f, 0x2c, 0x3c, 0x71, 0x0c, 0x94, 0x3e,
  0x27, 0xd9, 0x06, 0xbd, 0x9c, 0xfb, 0x91, 0xbd, 0x26, 0xf4, 0x2c, 0xbe,
  0x83, 0x55, 0xc5, 0x3d, 0x82, 0x2c, 0x83, 0xbd, 0x4c, 0x47, 0x9e, 0xbd,
  0x34, 0x76, 0x1e, 0x3d, 0xb8, 0x91, 0x2d, 0x3e, 0xde, 0xfa, 0x60, 0x3e,
  0xf7, 0xf5, 0xae, 0xbe, 0xca, 0x05, 0x29, 0x3e, 0x79, 0x68, 0x30, 0x3e,
  0x65, 0x09, 0xdb, 0x3d, 0xe8, 0x7f, 0x38, 0xbd, 0x04, 0xf1, 0xad, 0xbe,
  0x66, 0xe7, 0x58, 0x3e, 0x8b, 0x5c, 0xcb, 0xbd, 0x14, 0xc5, 0xc3, 0xbd,
  0x40, 0x54, 0x3b, 0xbd, 0xd5, 0x7a, 0x29, 0xbe, 0xd3, 0xb3, 0x88, 0xbd,
  0xe8, 0x80, 0x43, 0xbe, 0x82, 0x12, 0x2b, 0x3e, 0x2d, 0x06, 0x4d, 0xbe,
  0x91, 0x2f, 0x58, 0xbe, 0xba, 0xfd, 0x2b, 0x3e, 0x44, 0x99, 0x03, 0x3e,
  0xb0, 0xd4, 0xb5, 0xbc, 0x52, 0xb2, 0x79, 0x3e, 0x2a, 0x57, 0x7c, 0xbe,
  0x7c, 0x80, 0xa2, 0xbe, 0x2e, 0xfa, 0xe5, 0xbc, 0x8d, 0x04, 0x94, 0x3e,
  0x20, 0x67, 0x6d, 0xbc, 0xa2, 0xbb, 0x4a, 0x3e, 0x3b, 0xe9, 0x90, 0xbe,
  0x18, 0xa9, 0xd7, 0xba, 0x3a, 0xf2, 0x58, 0xbe, 0x90, 0xbd, 0x49, 0x3d,
  0x67, 0x6e, 0x84, 0x3d, 0xb0, 0x96, 0x05, 0xbe, 0x50, 0xd7, 0x83, 0xbe,
  0xea, 0x02, 0x07, 0x3e, 0x73, 0xd6, 0x88, 0x3e, 0x3f, 0x88, 0xf6, 0xbb,
  0x65, 0x06, 0xad, 0x3e, 0xeb, 0xe1, 0x39, 0xbd, 0xcc, 0x17, 0xac, 0xbd,
  0xb5, 0xe5, 0x8f, 0x3e, 0xdb, 0x80, 0x16, 0xbe, 0xa1, 0xbe, 0x85, 0xbe,
  0x29, 0x52, 0x3d, 0xbe, 0xe2, 0x99, 0xbb, 0x3d, 0x06, 0x9f, 0x27, 0xbd,
  0x40, 0x67, 0xe9, 0x3b, 0x7b, 0x64, 0x8f, 0xbe, 0xe0, 0x9f, 0xbf, 0x3c,
  0xba, 0x35, 0x0a, 0x3e, 0x83, 0x70, 0x93, 0x3e, 0xf6, 0x62, 0xd5, 0xbd,
  0xc3, 0x81, 0xa7, 0x3e, 0xd9, 0x70, 0x32, 0x3d, 0xae, 0x62, 0x36, 0x3e,
  0x09, 0x85, 0x43, 0x3e, 0xe0, 0xc1, 0x66, 0xbe, 0xad, 0xe4, 0xb2, 0x3e,
  0xd1, 0x18, 0xbf, 0xbe, 0x72, 0x65, 0xb6, 0xbe, 0x03, 0xeb, 0x81, 0xbe,
  0x26, 0x67, 0xb9, 0xbd, 0x5f, 0x5a, 0x00, 0x3e, 0xf8, 0x1d, 0x91, 0xbd,
  0x44, 0xe5, 0xce, 0xbd, 0xbb, 0xc5, 0x81, 0x3e, 0x88, 0xa8, 0x4c, 0x3d,
  0xc5, 0x59, 0xac, 0xbe, 0x23, 0x83, 0xa9, 0xbe, 0x2f, 0x5f, 0xa4, 0xbe,
  0x1a, 0xc1, 0x97, 0x3e, 0xc5, 0x9a, 0xac, 0xbe, 0x7e, 0x66, 0xc7, 0xbe,
  0xf5, 0x84, 0xa9, 0x3e, 0xcc, 0x3e, 0x87, 0xbe, 0x60, 0x5e, 0x10, 0x3c,
  0x28, 0x2a, 0xb5, 0xbe, 0x36, 0xc6, 0xfa, 0xbd, 0xc0, 0xdc, 0x3d, 0xbc,
  0x6c, 0x6d, 0x06, 0xbe, 0x94, 0x92, 0xeb, 0x3d, 0x30, 0xb2, 0x04, 0xbe,
  0xb7, 0xe7, 0x1f, 0xbe, 0x94, 0xa4, 0x4e, 0xbe, 0x26, 0x41, 0xb4, 0xbe,
  0x4a, 0x67, 0x9d, 0x3e, 0x51, 0xed, 0x97, 0x3e, 0xea, 0x62, 0xab, 0x3d,
  0x4c, 0x18, 0x78, 0xbe, 0x53, 0x26, 0x87, 0x3e, 0x2a, 0x11, 0x7a, 0x3e,
  0x8c, 0xb5, 0x44, 0x3e, 0x84, 0x0f, 0xac, 0x3d, 0xa6, 0x15, 0x8d, 0x3e,
  0x86, 0xfc, 0x70, 0xbc, 0xff, 0x0c, 0x97, 0xbe, 0x63, 0x26, 0x41, 0xbe,
  0x58, 0x9e, 0x8e, 0xbe, 0x74, 0xc6, 0xa7, 0xbd, 0xf4, 0xd6, 0xb9, 0xbc,
  0xf0, 0xc3, 0x4a, 0x3e, 0x40, 0x5b, 0x72, 0xbe, 0x8c, 0xfd, 0xb6, 0xbd,
  0x83, 0x9a, 0xa2, 0x3e, 0xb9, 0x3a, 0x3a, 0x3d, 0x38, 0x7d, 0x60, 0x3d,
  0x50, 0x3a, 0x89, 0xbc, 0x50, 0xa8, 0x13, 0x3e, 0x24, 0xe4, 0xa1, 0x3e,
  0xac, 0xc2, 0xba, 0xbe, 0xeb, 0x2a, 0x90, 0x3e, 0x88, 0xef, 0xb8, 0xbe,
  0x7e, 0x49, 0x76, 0x3e, 0x8e, 0x04, 0x9f, 0x3e, 0x78, 0x7e, 0x70, 0x3d,
  0x36, 0x79, 0x61, 0x3e, 0x3d, 0xc2, 0x49, 0xbe, 0x9e, 0xd7, 0x34, 0x3d,
  0x30, 0x12, 0xa9, 0x3c, 0xdd, 0x95, 0xcc, 0x3d, 0x7c, 0x4d, 0x36, 0x3d,
  0xfa, 0x38, 0x8f, 0xbe, 0x47, 0x8f, 0xfb, 0x3d, 0x42, 0x96, 0x3c, 0xbd,
  0xa0, 0x75, 0x9b, 0x3e, 0xa2, 0x35, 0x79, 0xbe, 0x55, 0xd7, 0xa1, 0x3e,
  0xa2, 0xff, 0xff, 0xff, 0x04, 0x00, 0x00, 0x00, 0x40, 0x00, 0x00, 0x00,
  0x54, 0xa8, 0x17, 0xbf, 0x3e, 0xd7, 0xbb, 0x3e, 0x9e, 0x56, 0x77, 0x3e,
  0x92, 0xb7, 0xcb, 0xbe, 0xce, 0xfc, 0xca, 0x3e, 0x4b, 0x6a, 0xda, 0xbd,
  0xf7, 0xeb, 0xbd, 0x3d, 0xb0, 0x46, 0x50, 0xbd, 0x48, 0x48, 0xe9, 0xbe,
  0x7c, 0x59, 0x70, 0x3e, 0x9c, 0xcf, 0xd3, 0x3e, 0x3e, 0x0c, 0xcd, 0x3e,
  0x14, 0x72, 0x01, 0x3d, 0x3c, 0x8c, 0x05, 0x3e, 0x92, 0xc1, 0xd1, 0x3c,
  0xdf, 0x04, 0xe5, 0x3e, 0xee, 0xff, 0xff, 0xff, 0x04, 0x00, 0x00, 0x00,
  0x04, 0x00, 0x00, 0x00, 0x14, 0x01, 0x8e, 0xbe, 0x00, 0x00, 0x06, 0x00,
  0x08, 0x00, 0x04, 0x00, 0x06, 0x00, 0x00, 0x00, 0x04, 0x00, 0x00, 0x00,
  0x40, 0x00, 0x00, 0x00, 0x00, 0x00, 0x00, 0x00, 0xcf, 0x9f, 0x85, 0xbe,
  0x53, 0xd5, 0x6e, 0xbd, 0xc3, 0x24, 0x85, 0x3e, 0xbf, 0xf0, 0x4c, 0xbd,
  0xbf, 0x67, 0x85, 0x3e, 0x93, 0x64, 0x6b, 0xbe, 0x00, 0x00, 0x00, 0x00,
  0x93, 0x63, 0x64, 0xbd, 0x25, 0xa2, 0x84, 0xbe, 0x00, 0x00, 0x00, 0x00,
  0x18, 0x2a, 0x86, 0xbe, 0xe3, 0xf3, 0x2e, 0xbd, 0x52, 0x71, 0x4b, 0xbd,
  0x3e, 0xf8, 0x1f, 0xbd, 0x21, 0xf1, 0x0e, 0xbd, 0x34, 0xfb, 0xff, 0xff,
  0x38, 0xfb, 0xff, 0xff, 0x0f, 0x00, 0x00, 0x00, 0x4d, 0x4c, 0x49, 0x52,
  0x20, 0x43, 0x6f, 0x6e, 0x76, 0x65, 0x72, 0x74, 0x65, 0x64, 0x2e, 0x00,
  0x01, 0x00, 0x00, 0x00, 0x14, 0x00, 0x00, 0x00, 0x00, 0x00, 0x0e, 0x00,
  0x18, 0x00, 0x14, 0x00, 0x10, 0x00, 0x0c, 0x00, 0x08, 0x00, 0x04, 0x00,
  0x0e, 0x00, 0x00, 0x00, 0x14, 0x00, 0x00, 0x00, 0x1c, 0x00, 0x00, 0x00,
  0xe8, 0x00, 0x00, 0x00, 0xec, 0x00, 0x00, 0x00, 0xf0, 0x00, 0x00, 0x00,
  0x04, 0x00, 0x00, 0x00, 0x6d, 0x61, 0x69, 0x6e, 0x00, 0x00, 0x00, 0x00,
  0x03, 0x00, 0x00, 0x00, 0x90, 0x00, 0x00, 0x00, 0x48, 0x00, 0x00, 0x00,
  0x04, 0x00, 0x00, 0x00, 0xce, 0xff, 0xff, 0xff, 0x10, 0x00, 0x00, 0x00,
  0x00, 0x00, 0x00, 0x08, 0x0c, 0x00, 0x00, 0x00, 0x10, 0x00, 0x00, 0x00,
  0xb0, 0xfb, 0xff, 0xff, 0x01, 0x00, 0x00, 0x00, 0x09, 0x00, 0x00, 0x00,
  0x03, 0x00, 0x00, 0x00, 0x08, 0x00, 0x00, 0x00, 0x03, 0x00, 0x00, 0x00,
  0x02, 0x00, 0x00, 0x00, 0x00, 0x00, 0x0e, 0x00, 0x14, 0x00, 0x00, 0x00,
  0x10, 0x00, 0x0c, 0x00, 0x0b, 0x00, 0x04, 0x00, 0x0e, 0x00, 0x00, 0x00,
  0x10, 0x00, 0x00, 0x00, 0x00, 0x00, 0x00, 0x08, 0x10, 0x00, 0x00, 0x00,
  0x14, 0x00, 0x00, 0x00, 0xba, 0xff, 0xff, 0xff, 0x00, 0x00, 0x00, 0x01,
  0x01, 0x00, 0x00, 0x00, 0x08, 0x00, 0x00, 0x00, 0x03, 0x00, 0x00, 0x00,
  0x07, 0x00, 0x00, 0x00, 0x04, 0x00, 0x00, 0x00, 0x01, 0x00, 0x00, 0x00,
  0x00, 0x00, 0x0e, 0x00, 0x16, 0x00, 0x00, 0x00, 0x10, 0x00, 0x0c, 0x00,
  0x0b, 0x00, 0x04, 0x00, 0x0e, 0x00, 0x00, 0x00, 0x18, 0x00, 0x00, 0x00,
  0x00, 0x00, 0x00, 0x08, 0x18, 0x00, 0x00, 0x00, 0x1c, 0x00, 0x00, 0x00,
  0x00, 0x00, 0x06, 0x00, 0x08, 0x00, 0x07, 0x00, 0x06, 0x00, 0x00, 0x00,
  0x00, 0x00, 0x00, 0x01, 0x01, 0x00, 0x00, 0x00, 0x07, 0x00, 0x00, 0x00,
  0x03, 0x00, 0x00, 0x00, 0x00, 0x00, 0x00, 0x00, 0x05, 0x00, 0x00, 0x00,
  0x06, 0x00, 0x00, 0x00, 0x01, 0x00, 0x00, 0x00, 0x09, 0x00, 0x00, 0x00,
  0x01, 0x00, 0x00, 0x00, 0x00, 0x00, 0x00, 0x00, 0x0a, 0x00, 0x00, 0x00,
  0x68, 0x03, 0x00, 0x00, 0x14, 0x03, 0x00, 0x00, 0xc0, 0x02, 0x00, 0x00,
  0x80, 0x02, 0x00, 0x00, 0x40, 0x02, 0x00, 0x00, 0xf4, 0x01, 0x00, 0x00,
  0x90, 0x01, 0x00, 0x00, 0xfc, 0x00, 0x00, 0x00, 0x60, 0x00, 0x00, 0x00,
  0x04, 0x00, 0x00, 0x00, 0xd6, 0xfc, 0xff, 0xff, 0x00, 0x00, 0x00, 0x01,
  0x14, 0x00, 0x00, 0x00, 0x1c, 0x00, 0x00, 0x00, 0x1c, 0x00, 0x00, 0x00,
  0x0a, 0x00, 0x00, 0x00, 0x34, 0x00, 0x00, 0x00, 0x02, 0x00, 0x00, 0x00,
  0xff, 0xff, 0xff, 0xff, 0x01, 0x00, 0x00, 0x00, 0xc0, 0xfc, 0xff, 0xff,
  0x1b, 0x00, 0x00, 0x00, 0x53, 0x74, 0x61, 0x74, 0x65, 0x66, 0x75, 0x6c,
  0x50, 0x61, 0x72, 0x74, 0x69, 0x74, 0x69, 0x6f, 0x6e, 0x65, 0x64, 0x43,
  0x61, 0x6c, 0x6c, 0x5f, 0x31, 0x3a, 0x30, 0x00, 0x02, 0x00, 0x00, 0x00,
  0x01, 0x00, 0x00, 0x00, 0x01, 0x00, 0x00, 0x00, 0x2e, 0xfd, 0xff, 0xff,
  0x00, 0x00, 0x00, 0x01, 0x14, 0x00, 0x00, 0x00, 0x1c, 0x00, 0x00, 0x00,
  0x1c, 0x00, 0x00, 0x00, 0x09, 0x00, 0x00, 0x00, 0x74, 0x00, 0x00, 0x00,
  0x02, 0x00, 0x00, 0x00, 0xff, 0xff, 0xff, 0xff, 0x10, 0x00, 0x00, 0x00,
  0x18, 0xfd, 0xff, 0xff, 0x58, 0x00, 0x00, 0x00, 0x73, 0x65, 0x71, 0x75,
  0x65, 0x6e, 0x74, 0x69, 0x61, 0x6c, 0x5f, 0x31, 0x2f, 0x64, 0x65, 0x6e,
  0x73, 0x65, 0x5f, 0x31, 0x5f, 0x32, 0x2f, 0x4d, 0x61, 0x74, 0x4d, 0x75,
  0x6c, 0x3b, 0x73, 0x65, 0x71, 0x75, 0x65, 0x6e, 0x74, 0x69, 0x61, 0x6c,
  0x5f, 0x31, 0x2f, 0x64, 0x65, 0x6e, 0x73, 0x65, 0x5f, 0x31, 0x5f, 0x32,
  0x2f, 0x52, 0x65, 0x6c, 0x75, 0x3b, 0x73, 0x65, 0x71, 0x75, 0x65, 0x6e,
  0x74, 0x69, 0x61, 0x6c, 0x5f, 0x31, 0x2f, 0x64, 0x65, 0x6e, 0x73, 0x65,
  0x5f, 0x31, 0x5f, 0x32, 0x2f, 0x42, 0x69, 0x61, 0x73, 0x41, 0x64, 0x64,
  0x00, 0x00, 0x00, 0x00, 0x02, 0x00, 0x00, 0x00, 0x01, 0x00, 0x00, 0x00,
  0x10, 0x00, 0x00, 0x00, 0xc6, 0xfd, 0xff, 0xff, 0x00, 0x00, 0x00, 0x01,
  0x14, 0x00, 0x00, 0x00, 0x1c, 0x00, 0x00, 0x00, 0x1c, 0x00, 0x00, 0x00,
  0x08, 0x00, 0x00, 0x00, 0x6c, 0x00, 0x00, 0x00, 0x02, 0x00, 0x00, 0x00,
  0xff, 0xff, 0xff, 0xff, 0x20, 0x00, 0x00, 0x00, 0xb0, 0xfd, 0xff, 0xff,
  0x52, 0x00, 0x00, 0x00, 0x73, 0x65, 0x71, 0x75, 0x65, 0x6e, 0x74, 0x69,
  0x61, 0x6c, 0x5f, 0x31, 0x2f, 0x64, 0x65, 0x6e, 0x73, 0x65, 0x5f, 0x31,
  0x2f, 0x4d, 0x61, 0x74, 0x4d, 0x75, 0x6c, 0x3b, 0x73, 0x65, 0x71, 0x75,
  0x65, 0x6e, 0x74, 0x69, 0x61, 0x6c, 0x5f, 0x31, 0x2f, 0x64, 0x65, 0x6e,
  0x73, 0x65, 0x5f, 0x31, 0x2f, 0x52, 0x65, 0x6c, 0x75, 0x3b, 0x73, 0x65,
  0x71, 0x75, 0x65, 0x6e, 0x74, 0x69, 0x61, 0x6c, 0x5f, 0x31, 0x2f, 0x64,
  0x65, 0x6e, 0x73, 0x65, 0x5f, 0x31, 0x2f, 0x42, 0x69, 0x61, 0x73, 0x41,
  0x64, 0x64, 0x00, 0x00, 0x02, 0x00, 0x00, 0x00, 0x01, 0x00, 0x00, 0x00,
  0x20, 0x00, 0x00, 0x00, 0xa6, 0xfe, 0xff, 0xff, 0x00, 0x00, 0x00, 0x01,
  0x10, 0x00, 0x00, 0x00, 0x10, 0x00, 0x00, 0x00, 0x07, 0x00, 0x00, 0x00,
  0x44, 0x00, 0x00, 0x00, 0x30, 0xfe, 0xff, 0xff, 0x36, 0x00, 0x00, 0x00,
  0x73, 0x65, 0x71, 0x75, 0x65, 0x6e, 0x74, 0x69, 0x61, 0x6c, 0x5f, 0x31,
  0x2f, 0x64, 0x65, 0x6e, 0x73, 0x65, 0x5f, 0x31, 0x2f, 0x52, 0x65, 0x6c,
  0x75, 0x3b, 0x73, 0x65, 0x71, 0x75, 0x65, 0x6e, 0x74, 0x69, 0x61, 0x6c,
  0x5f, 0x31, 0x2f, 0x64, 0x65, 0x6e, 0x73, 0x65, 0x5f, 0x31, 0x2f, 0x42,
  0x69, 0x61, 0x73, 0x41, 0x64, 0x64, 0x00, 0x00, 0x01, 0x00, 0x00, 0x00,
  0x20, 0x00, 0x00, 0x00, 0x06, 0xff, 0xff, 0xff, 0x00, 0x00, 0x00, 0x01,
  0x10, 0x00, 0x00, 0x00, 0x10, 0x00, 0x00, 0x00, 0x06, 0x00, 0x00, 0x00,
  0x28, 0x00, 0x00, 0x00, 0x90, 0xfe, 0xff, 0xff, 0x1b, 0x00, 0x00, 0x00,
  0x73, 0x65, 0x71, 0x75, 0x65, 0x6e, 0x74, 0x69, 0x61, 0x6c, 0x5f, 0x31,
  0x2f, 0x64, 0x65, 0x6e, 0x73, 0x65, 0x5f, 0x31, 0x2f, 0x4d, 0x61, 0x74,
  0x4d, 0x75, 0x6c, 0x00, 0x02, 0x00, 0x00, 0x00, 0x20, 0x00, 0x00, 0x00,
  0x02, 0x00, 0x00, 0x00, 0x4e, 0xff, 0xff, 0xff, 0x00, 0x00, 0x00, 0x01,
  0x10, 0x00, 0x00, 0x00, 0x10, 0x00, 0x00, 0x00, 0x05, 0x00, 0x00, 0x00,
  0x1c, 0x00, 0x00, 0x00, 0xd8, 0xfe, 0xff, 0xff, 0x0f, 0x00, 0x00, 0x00,
  0x61, 0x72, 0x69, 0x74, 0x68, 0x2e, 0x63, 0x6f, 0x6e, 0x73, 0x74, 0x61,
  0x6e, 0x74, 0x33, 0x00, 0x02, 0x00, 0x00, 0x00, 0x10, 0x00, 0x00, 0x00,
  0x20, 0x00, 0x00, 0x00, 0x8a, 0xff, 0xff, 0xff, 0x00, 0x00, 0x00, 0x01,
  0x10, 0x00, 0x00, 0x00, 0x10, 0x00, 0x00, 0x00, 0x04, 0x00, 0x00, 0x00,
  0x1c, 0x00, 0x00, 0x00, 0x14, 0xff, 0xff, 0xff, 0x0f, 0x00, 0x00, 0x00,
  0x61, 0x72, 0x69, 0x74, 0x68, 0x2e, 0x63, 0x6f, 0x6e, 0x73, 0x74, 0x61,
  0x6e, 0x74, 0x32, 0x00, 0x02, 0x00, 0x00, 0x00, 0x01, 0x00, 0x00, 0x00,
  0x10, 0x00, 0x00, 0x00, 0xc6, 0xff, 0xff, 0xff, 0x00, 0x00, 0x00, 0x01,
  0x10, 0x00, 0x00, 0x00, 0x10, 0x00, 0x00, 0x00, 0x03, 0x00, 0x00, 0x00,
  0x1c, 0x00, 0x00, 0x00, 0x50, 0xff, 0xff, 0xff, 0x0f, 0x00, 0x00, 0x00,
  0x61, 0x72, 0x69, 0x74, 0x68, 0x2e, 0x63, 0x6f, 0x6e, 0x73, 0x74, 0x61,
  0x6e, 0x74, 0x31, 0x00, 0x01, 0x00, 0x00, 0x00, 0x01, 0x00, 0x00, 0x00,
  0x00, 0x00, 0x16, 0x00, 0x18, 0x00, 0x14, 0x00, 0x00, 0x00, 0x10, 0x00,
  0x0c, 0x00, 0x08, 0x00, 0x00, 0x00, 0x00, 0x00, 0x00, 0x00, 0x07, 0x00,
  0x16, 0x00, 0x00, 0x00, 0x00, 0x00, 0x00, 0x01, 0x10, 0x00, 0x00, 0x00,
  0x10, 0x00, 0x00, 0x00, 0x02, 0x00, 0x00, 0x00, 0x1c, 0x00, 0x00, 0x00,
  0xa0, 0xff, 0xff, 0xff, 0x0e, 0x00, 0x00, 0x00, 0x61, 0x72, 0x69, 0x74,
  0x68, 0x2e, 0x63, 0x6f, 0x6e, 0x73, 0x74, 0x61, 0x6e, 0x74, 0x00, 0x00,
  0x01, 0x00, 0x00, 0x00, 0x10, 0x00, 0x00, 0x00, 0x00, 0x00, 0x16, 0x00,
  0x1c, 0x00, 0x18, 0x00, 0x00, 0x00, 0x14, 0x00, 0x10, 0x00, 0x0c, 0x00,
  0x00, 0x00, 0x00, 0x00, 0x08, 0x00, 0x07, 0x00, 0x16, 0x00, 0x00, 0x00,
  0x00, 0x00, 0x00, 0x01, 0x14, 0x00, 0x00, 0x00, 0x20, 0x00, 0x00, 0x00,
  0x20, 0x00, 0x00, 0x00, 0x01, 0x00, 0x00, 0x00, 0x3c, 0x00, 0x00, 0x00,
  0x02, 0x00, 0x00, 0x00, 0xff, 0xff, 0xff, 0xff, 0x02, 0x00, 0x00, 0x00,
  0x04, 0x00, 0x04, 0x00, 0x04, 0x00, 0x00, 0x00, 0x1e, 0x00, 0x00, 0x00,
  0x73, 0x65, 0x72, 0x76, 0x69, 0x6e, 0x67, 0x5f, 0x64, 0x65, 0x66, 0x61,
  0x75, 0x6c, 0x74, 0x5f, 0x6b, 0x65, 0x72, 0x61, 0x73, 0x5f, 0x74, 0x65,
  0x6e, 0x73, 0x6f, 0x72, 0x3a, 0x30, 0x00, 0x00, 0x02, 0x00, 0x00, 0x00,
  0x01, 0x00, 0x00, 0x00, 0x02, 0x00, 0x00, 0x00, 0x01, 0x00, 0x00, 0x00,
  0x10, 0x00, 0x00, 0x00, 0x0c, 0x00, 0x0c, 0x00, 0x0b, 0x00, 0x00, 0x00,
  0x00, 0x00, 0x04, 0x00, 0x0c, 0x00, 0x00, 0x00, 0x09, 0x00, 0x00, 0x00,
  0x00, 0x00, 0x00, 0x09
};

